/**
  ******************************************************************************
  * @file    predictive_maintenance_data_params.c
  * @author  AST Embedded Analytics Research Platform
  * @date    2025-03-18T00:33:43+0100
  * @brief   AI Tool Automatic Code Generator for Embedded NN computing
  ******************************************************************************
  * Copyright (c) 2025 STMicroelectronics.
  * All rights reserved.
  *
  * This software is licensed under terms that can be found in the LICENSE file
  * in the root directory of this software component.
  * If no LICENSE file comes with this software, it is provided AS-IS.
  ******************************************************************************
  */

#include "predictive_maintenance_data_params.h"


/**  Activations Section  ****************************************************/
ai_handle g_predictive_maintenance_activations_table[1 + 2] = {
  AI_HANDLE_PTR(AI_MAGIC_MARKER),
  AI_HANDLE_PTR(NULL),
  AI_HANDLE_PTR(AI_MAGIC_MARKER),
};




/**  Weights Section  ********************************************************/
AI_ALIGNED(32)
const ai_u64 s_predictive_maintenance_weights_array_u64[1315] = {
  0xbe8d6166be31514eU, 0x3e1a4a14be839031U, 0xbe91f7d63dd41578U, 0xbe8bf9bdbe4b81ceU,
  0xbe2c7c523e5da3c8U, 0x3e0f1961bd1d9b30U, 0x3f619e64bd793c8fU, 0x3ea997f33daa8c8cU,
  0x3cbbf953bdc35accU, 0xbea153d0bf1f6f23U, 0xbda9ad8a3db76238U, 0xbdc19c32bdf713aeU,
  0xbe8f77733e1ba058U, 0xbc870cc03e63fe20U, 0xbe7729aa3ca036f0U, 0xbe999adf3d0bba40U,
  0xbf2a65373cfda5d6U, 0x3e79bee8beae26f5U, 0xbe3870e7be70ec5fU, 0x3d7903a03d9ab8d8U,
  0x3c9a469bbed6b13fU, 0x3f4129813d7f455aU, 0xbe6fd1edbe79cbb1U, 0xbcbe2660be84bfe8U,
  0xbdc52b8a3e5b5524U, 0x3e88cace3e08253dU, 0xbf42357cbd640c4fU, 0x3d2ea48e3dc95a16U,
  0x3c9a8787be823993U, 0xbe8f14d53e8b868aU, 0xbe81212b3dbe3f94U, 0xbd32edb73c985f86U,
  0x3e7dbaf0bd79c1b7U, 0xbc3e03203d4f934fU, 0xbd35d12fbf69197aU, 0xbe020250be4e698aU,
  0xbe8850a7be37b376U, 0xbe3303723c1d10e0U, 0xbe17b3dc3d3c70c8U, 0xbdc5736abd159a68U,
  0xbecfce93bee8f583U, 0xbf34c0f03e1c774bU, 0xbe90b7e53ddf4166U, 0xbdae7266be188032U,
  0xbe934bcd3e29ff72U, 0xbe8163ec3e10b9baU, 0x3e0df5eabe8ecb3aU, 0x3b732c803e8f8b82U,
  0xbe37bad03d82fcfcU, 0x3d4ec838bb63ac80U, 0x3e06598cbe7775baU, 0xbd4a8364be066f46U,
  0xbe80eabebe942503U, 0x39f51400bde9d158U, 0x3e8835f23d5758b0U, 0xbee031e8be70aaacU,
  0x3cd8d93b3e0d03b7U, 0x3da27720be4c5c18U, 0xbe130aedbe1a0bf3U, 0x3e158d503c86a9e0U,
  0x3e2ba1bebde6384eU, 0x3e4e3b5abe8d1ff6U, 0xbe95c9f2be0ec42bU, 0x3e1082e5be3ed69fU,
  0xbeb47d5c3f45a1deU, 0xbcc0a490bde7f7f2U, 0x3e5588b0bd6a5bc0U, 0xbd517ba83e402030U,
  0xbdffaf9abd89bf1aU, 0xbe2f979b3e86911cU, 0xbd42993b3e4fa885U, 0xbfa3a0fd3d6640abU,
  0x3e66184dbdf2b93dU, 0x3db1c6a1be56c5a7U, 0xbf2780583a963c9aU, 0x3dac0732be058beeU,
  0x3ea13591bc5b9197U, 0xbe7750763d03f611U, 0xbcde4f00be3fa7eeU, 0x3e6f66f4be1bcd5fU,
  0xbebfce00bec24d19U, 0xbe8099873e3bb230U, 0xbec3a22fbd7e00f9U, 0x3d8e7995be5b2f65U,
  0x3eb19f943f46d904U, 0x3e84b6d6be7566fdU, 0x3d12a2b8bdf35f84U, 0xbdc89f903e39b3beU,
  0xbe07f667be6889beU, 0x3e8af3de3d96db08U, 0xbd0817903e6143ecU, 0xbdfd2b9cbe8085f5U,
  0xbd66abb1be044989U, 0x3d27135bbe9d2a1dU, 0xbe46c5e53e796662U, 0x3e5a6174be845d7dU,
  0x3e43faa0bd18e8a8U, 0xbdd94106be37831eU, 0xbdfdb552bdaa078eU, 0x3e3211703e8f0b2cU,
  0xbddc811fbe7b8775U, 0xbf58316e3df48043U, 0x3eb119e1ba7f44e0U, 0xbdbfed243e686d93U,
  0xbdd4785d3f616448U, 0xbd51ce14bdba1d18U, 0x3e8382fabe82e31dU, 0x3de8d9a33dd32a44U,
  0xbd8ee4e43ca316f0U, 0x3dcb75e03f70365cU, 0xbe282769be194be3U, 0xbe86b0243d0b1050U,
  0x3d40e78abe17c6b7U, 0x3d2509ff3e4bc144U, 0xbf1638bd3e62177bU, 0xbe6f064a3ce3cc40U,
  0x3dfb0cb0be685c72U, 0x3dc65cd03e048162U, 0xbe89e3c73e909592U, 0x3e58619c3e346454U,
  0x3dad87b43d638a68U, 0xbe1112dcbe5e467aU, 0xbe49894abe0731c9U, 0x3c8c85813d28a054U,
  0xbe195993be8d4ab3U, 0xbde185c1bece2669U, 0x3e4ab9683d42c64dU, 0xbc95b76d3ce38fdfU,
  0x3d77c192bc3e344bU, 0xbeb6335ebed70535U, 0xbe8dbcddbef8296cU, 0x3f26a2503e180ddbU,
  0xbe88b1ca3d036948U, 0x3ca7feb03d36d100U, 0xbdc611323ea43765U, 0x3c82b7aabea08e12U,
  0xbf3ad1663da9414fU, 0xbe1d0f883e91815bU, 0xbe6f371dbe82a6e0U, 0x3e450794be1fcb12U,
  0xbdab3767bd05c7e0U, 0x3e2aa33d3c444912U, 0x3e72ace4bd9e3f21U, 0xbe560f2e3e8ab908U,
  0x3d471ad83b716080U, 0xbe0dc48bbd54f3c8U, 0xbd7cad24be34c975U, 0x3d6b7cd03db75370U,
  0x3c9537b0be622adeU, 0xbd0b0438be78f094U, 0x3e53c1ecbe87d135U, 0xbe93e50cbca71c20U,
  0xbebb3504bd39348cU, 0x3e312b9fbe972720U, 0xbeccf3bc3f745c8eU, 0xbe87299d3dbb10b4U,
  0xbda09a14be9690bcU, 0xbe9a3e223e6237f4U, 0x3dd958ac3e5d0188U, 0xbe8a1016bf493ba9U,
  0x0U, 0xbb54d0abbe1761d0U, 0x0U, 0xbd63cf27U,
  0xbe6d333eU, 0xbdcec9f23c9cd067U, 0x3b922050be1a33e7U, 0x0U,
  0xbe420e53U, 0x0U, 0x0U, 0xbe3ed0b5U,
  0x3cde4b0000000000U, 0x0U, 0x3cc09038be04a265U, 0xbe1779b7U,
  0xbc841cb3bd8ca73cU, 0x0U, 0xbe4d273e00000000U, 0x0U,
  0xbdea0f7bbe1b860aU, 0xbe116e4700000000U, 0xbd5ee6a600000000U, 0x0U,
  0xbdac12ea00000000U, 0xbdfd7107be0e651cU, 0xbd266e6cbda1c212U, 0xbe490a49U,
  0xbe0301a6U, 0x0U, 0xbcc5c8f500000000U, 0xbc7e67e600000000U,
  0xbd0187903d0d3bc0U, 0x3e2583323cf69374U, 0xbc821d003e4ba058U, 0x3e3789183e21d006U,
  0xbe5da508be2a8cb3U, 0xbe570186be6340a4U, 0xbdabb7ef3d3e3bbfU, 0x3c6b30003c99ea60U,
  0x3ca787e0bdf13a18U, 0xbe67a750bca41d80U, 0xbd6cdd903e5bae0cU, 0x3dd782f0be817293U,
  0x3d282f89bd87d630U, 0x3d924568be0cbfe4U, 0xbda516ddbe69b918U, 0x3e4e3de43e106c23U,
  0x3c0e6d923dfb41e5U, 0x3de7e520be088750U, 0xbdfb4710be2eccd4U, 0x3e5e6894bd0082f0U,
  0xbdc5d82fbdeeefe7U, 0x3e59172bbd804078U, 0xbd63daabbe5f116cU, 0x3d4892f03e227530U,
  0x3e51a91e3dab8570U, 0x3d640679be815250U, 0x3e5b1316bc2007c1U, 0xbe64917cbe032dc1U,
  0x3ca47f603e2587f6U, 0x3d0b14103e75b858U, 0xbe7ff815bde92f18U, 0x3e06589ebe1d4864U,
  0x3d12caf0be16da4cU, 0xbe85e40cbe2d76aaU, 0xbe00b7c8be366380U, 0xb9abb800bdd4cb65U,
  0x3e6db310bd3cc3b4U, 0xbdf840f2be775c2fU, 0xbd65f02e3e69e7a4U, 0x3d22dc303e0485ccU,
  0xbe7c723cbe0fba43U, 0xbe6e3ebc3e39bd8cU, 0xbcab0480bd753a50U, 0x3e38b1d0be3242d8U,
  0xbca11f0c3de3a1f0U, 0x3e38e77cbe08cc98U, 0x3dbc4063bde62684U, 0xbe7f5c3cbe2f1fe6U,
  0x3cea17c03d8438ecU, 0x3e670814bd93f730U, 0xbe1b42fc3deb9f40U, 0x3e196fc83d1dd100U,
  0xbe4c7c2b3c0125d4U, 0xbe4036ef3cccbde0U, 0x3e22fd95bd7a7460U, 0x3e0f5924be4d9b90U,
  0x3dc288b83dad1060U, 0x3e2cba173e539272U, 0x3e73e57cbe31fca6U, 0xbc436340be84546cU,
  0xbde41b983e3bc540U, 0x3e5f83dc3dd7f538U, 0x3e22b1ba3e6c809cU, 0xbe822fa2bd5a4440U,
  0xbdab9080be7aed7cU, 0x3d917bf03cc34e32U, 0xbe019f403de85bb0U, 0xbdad2ac83df2a750U,
  0xbe7f26dc3d899ca5U, 0xbd1acec0be56a39eU, 0xbe84d003be73d3e4U, 0x3de9fb78bda81da0U,
  0xbd0c3020bd4d05d0U, 0xbd071a103e227f6cU, 0x3dc81f68bdf49528U, 0xbda2f3783d917de8U,
  0xbe5aa73abd93f440U, 0xbe12ccb43e2ae7c4U, 0xbda956003deb93d4U, 0x3e252ec8be3563e8U,
  0x3dfe8f773d900e60U, 0xbb478b003da0a458U, 0x3cf93520bd82c360U, 0xbe155a78be45878cU,
  0x3d6459403e2a105cU, 0x3d50d6fbbcba26e0U, 0xbe834003bdf66610U, 0xbe155874bde85778U,
  0xbe09fe56be4fb738U, 0xbe21f1e2be80f954U, 0xbd9de1a0be0e575dU, 0x3bbb7980be5324e7U,
  0x3e7101483e2fc868U, 0x3e2a30183d3e6a50U, 0xbe1351a4be063ba8U, 0x3c789f9b3e272d08U,
  0xbd86ca903be51c00U, 0xbdd600b0bd4bfdf0U, 0x3d70d3103d8ba3a0U, 0xbe738ff83dcd97c8U,
  0x3e37e760be58b6c0U, 0xbe6010b8be6346d4U, 0xbdd462c83e240390U, 0x3daae0d0be0d72a4U,
  0x3b90af80bd3e27c0U, 0x3ca495603d24ca80U, 0xbe79b584bdfbe038U, 0x3e323c803e7205e0U,
  0x3d162d90bbf5e500U, 0x3e6f3b283e316698U, 0x3e1cd148be5c4244U, 0xbdae9130bd7bcee0U,
  0xbd140bb0bd215110U, 0xbe478d18bd8f1050U, 0xbe751f60be142cf8U, 0xbe5c8c60be65f694U,
  0xbd0927d0bd7c5750U, 0x3ce82cc03da802f0U, 0x3c850140be3bafc4U, 0xbe5d4bdcbe34f644U,
  0xbde058c0bc291ac0U, 0x3def1a68be2fa0fcU, 0xbe119fe83c57f4c0U, 0xbe04ed10bd173690U,
  0xbd9d5e383a884e00U, 0xbe0b7de03e1df6c0U, 0xbe587574bd30fff0U, 0xbe49a6943e5caf4cU,
  0xbd435050be4d535cU, 0xbd0d2290be3e6c8eU, 0x3e2637d0be0616d4U, 0x3e0d20803da0de4cU,
  0x3dbae4683e22e68aU, 0x3db04503be849365U, 0xbe237a5c3e31c499U, 0x3b9e8080be0ebbb0U,
  0x3de2fbb0be4d405aU, 0x3d92d748bdce19d0U, 0x3e67c1d83e3ef8e8U, 0x3d7fef203e1f4b9cU,
  0x3daf09a83e359bf8U, 0x3da04990bdbe54a0U, 0xbe546175be840d2fU, 0xbe4f2108bdde9f37U,
  0x3e0553cb3e0b9ae4U, 0xbbfc3e80be3a4060U, 0x3c2ef50ebdd4f4f8U, 0xbe4c97143e1a71ecU,
  0xbe8e2b22bd353881U, 0x3e222ee0bdfe9268U, 0xbd0ce0b0bcd9d0a0U, 0x3e070bc03e4baad8U,
  0xbd4f3ef63e22685cU, 0xbe5a3d243e044634U, 0x3dea42b9be5011e2U, 0x3e7350cc3b8dbab8U,
  0x3e26c67cbe84d998U, 0xbe143ab8be287b3cU, 0xbb779484bd96cbc0U, 0xbe730c69be792fc0U,
  0x3e013d9cbe073da4U, 0xbcf309ff3e25021cU, 0xbcb090603e3c3c38U, 0x3e4dda60be792550U,
  0x3e42b278bd1696daU, 0xbe60fd94be75cc3aU, 0xbe0a0cdb3e1c0c5fU, 0x3e170a50be465ac4U,
  0xbe7bec38be4995c0U, 0x3c82f260be3a64fcU, 0xbcf7fce03c7c8c40U, 0xbe503034be138acdU,
  0xbe95d40dbcd4b120U, 0x3dd388603e7eb7a8U, 0xbde47bea3ca27666U, 0x3e5e12403db9bebeU,
  0x3e0d149c3e407314U, 0xbcadaf40bca7e760U, 0xbe88745f3d65eb60U, 0xbe1640ecbe141180U,
  0xbe8c5342be5f3f8aU, 0xbdacc013be450dd8U, 0xbd17a74d3e71a61cU, 0xbcb73180be4acca0U,
  0x3dc1ce35be793a18U, 0xbe08ae0c3e258b2aU, 0xbddc6c8dbe52c99cU, 0x3db5e4d03d7d77d1U,
  0xbe5ceb7c3e3f59fbU, 0xbe10a28c3d2bb9a0U, 0x3d17cb7d3df9c9d8U, 0xbe46b373bdd061a0U,
  0x3e2d062cbe0bb6c8U, 0xbe2d2d02bd86bbd4U, 0x3e2994fc3decd3e8U, 0x3ca9d8803ce46ba1U,
  0x3e50e86c3e0f3879U, 0xbe47b06e3ebc1890U, 0x3e1f8d89be0a0c1bU, 0x3de52348bce5f180U,
  0x3d6f1e103d1bdd34U, 0xbdf4c4383d69f680U, 0x3e23e6b0bdfc61b0U, 0xbe6a1d303d3025deU,
  0xbe6ee5703e4f5a04U, 0x3df107883e6d6d6cU, 0xbe253fb53e0ffd86U, 0xbd2d69d0be36bba4U,
  0x3eba25cb3e2b7673U, 0x3c1f49c03e7a4988U, 0xbdeccd2d3d9c3de0U, 0xbce4cd403d716b50U,
  0xbcf5b2043e56648eU, 0xbe0528ffbdf90320U, 0x3d9de27abc2923c0U, 0x3dbc0c503dcfae48U,
  0x3d10c14cbd8d9278U, 0xbe0b05a43c65aed6U, 0x3df6840b3d24f8d1U, 0xbe059ba03db4f345U,
  0xbca041603e6b0b8aU, 0x3e3f9cf0bcb4afc0U, 0xbf09e63c3e376658U, 0x3e5046bbbe2e6ac0U,
  0x3df462d83d9632c8U, 0xbdb1955e3dae970bU, 0x3e2949c8bdbedad8U, 0x3dc2ae403e39b9c7U,
  0xbc33c3003e649ad5U, 0x3db2aa55bb25f50cU, 0xbe105d6bbc71d46cU, 0xbe4ce73cbe67ea5cU,
  0xbdbcd0d0bec7e52eU, 0x3e74c8e4bbb99c00U, 0x3ba1f8803e1ae3b0U, 0xbdb0eb18bdc20004U,
  0x3e455d263cf755e0U, 0xbdc5b1283e266820U, 0x3d884fe7be59d538U, 0xbdc9e840bd30d61dU,
  0x3d84e3b93d0000bfU, 0xbe46e6b83df372b8U, 0xbd36668cbdd19a00U, 0xbe6c21bc3e501948U,
  0x3e58bab9bd5c973dU, 0xbc0831fe3e69aaa0U, 0x3e4f3fb03dd07720U, 0xbe11476c3e552d60U,
  0x3e50031dbe25ca70U, 0xbcb3e09e3ca32804U, 0x3d1d76a3bda7c2adU, 0x3c963a00be35635bU,
  0xbe5e2260bd910a51U, 0xbba220003e6c0c14U, 0x3ecabe0fbe36fb18U, 0x3dfe5b1d3cd8e2a0U,
  0xbc934d00bcdf9d40U, 0x3dc15a2a3dd6bfe1U, 0x3e430e80bd117d10U, 0xbd5c77f0bde67418U,
  0x3e6ec480be4b2865U, 0xbd4e2ae03e15407aU, 0x3d6800023e2f1598U, 0xbe0319fc3d055400U,
  0x3e4d37603e650ed8U, 0xbdb78848be3e3a20U, 0xbe182ed83e7af264U, 0xbd899f90be78d700U,
  0x3e2cae7e3d67ec90U, 0xbdb6b368be7c4facU, 0xbe8b2987be6b893bU, 0x3e759bbcbdd26818U,
  0xbe881a4ebdb4d8f0U, 0x3d1a69d0be691870U, 0x3e1174443e106d1cU, 0xbdf214483e67b0acU,
  0xbdbbccaa3df738b0U, 0xbd66d3abbdb27910U, 0xbc98a789be1cd460U, 0xbc8000a03de22530U,
  0xbe8dde40be11a960U, 0xbcc90a6f3dea18d8U, 0x3d1a74d0bd753340U, 0xbe74ffacbe9a5f31U,
  0x3e3af4f8bda62cf0U, 0x3dd75b683e536bbcU, 0xbe4f0b3f3e37f744U, 0xbd8051c03d8adb78U,
  0xbe4bb8bc3e51b634U, 0x3e31d87b3d60c932U, 0x3cf177203e1d5694U, 0xbe1782b0bd5985b1U,
  0x3e1be118be0c9851U, 0x3c77f6bbbe312935U, 0xbe1ad793be09d02fU, 0xbdbc3438be5ffbb0U,
  0xbe30ba48be6dcd8eU, 0x3d3c79e0bdcf4780U, 0xbe49eb543e3e00e4U, 0x3e43f7f03c9e479dU,
  0xbd348e52bdd2c6e8U, 0xbd972f58be44d218U, 0xbe7d4f9bbd18f8daU, 0x3d803e803e4061e5U,
  0xbe827fb3bdc2aaf7U, 0x3e75c264bd61cb20U, 0x3e011f0f3e680310U, 0xbd9769e0be3b6370U,
  0xbe80081a3e0fc350U, 0x3e06a584bd9ced80U, 0xbdcc16b8be32dc7cU, 0xbe0ff174be6d2a94U,
  0xbdab84f8be3a1404U, 0xbd93d5e63e289649U, 0xbe48d616be80ebdcU, 0x3e1edf3cbd95ab06U,
  0xbe7507a8bcf84307U, 0x3d6d9e70be532d1cU, 0xbdac6d8f3dd72878U, 0x3e1da204bdca9e10U,
  0xbe238bc03daf4fc8U, 0x3da8efb03de834f9U, 0xbdcb6f30be7c5508U, 0x3e65d5b8bd22df04U,
  0x3d6dee003d856c97U, 0x3d27c5533e3252a8U, 0x3e30b57b3dfd0e51U, 0xbe7be42cbe2e13c8U,
  0x3e6cf520be74dcf0U, 0xbdaf7750be4084c4U, 0x3dafef58bd439f00U, 0x3ccf8ce0be4a611aU,
  0xbe39e8a03d953d78U, 0x3e35dfc83ce4c680U, 0xbdda014f3e484c38U, 0xbddef9383c8a8ea5U,
  0xbe9d1e1cbfc59e49U, 0x3e719fa03bc77f00U, 0xbe1ebbe6bc205dc0U, 0xbc9da9803e39e060U,
  0x3e7ac914bb994ec3U, 0x3dfca8d7bafb9c00U, 0xbd2475cebe65c934U, 0xbdc22e60be5fac44U,
  0xbe0c5ef3bdff6960U, 0x3c0f6c5e3da62319U, 0xbe2a15fabebdafdaU, 0xbe36d8483e30a8e7U,
  0xbe2cce7c3d6f1608U, 0xbe5542cc3e6394acU, 0xbe89c482bde4e628U, 0xbc83492a3e6bc724U,
  0xbe084788be47c02cU, 0x3e44b49cbdbf3ec8U, 0xbe0202243e71a048U, 0xbda5ce303df5d078U,
  0xbe49f93c3dbe4bacU, 0xbe02f663bd747145U, 0x3e0a95203cf9738fU, 0x3e35abd0be1a3188U,
  0xbe1fce04be853f71U, 0x3cf4e4c03b7f1400U, 0x3e277d4c3d2016f0U, 0xbd7f9bc0be51cbbaU,
  0xbd31f52bbd1c4d80U, 0xbb21ad00be4552e4U, 0xbe6d6f27be728af8U, 0x3e6dcea0be71a282U,
  0xbe36bffd3d623980U, 0x3e77bb443d1d6fa0U, 0xbdafb9af3e7cabecU, 0xbd2418403cf21800U,
  0xbe1efe0abd947c71U, 0x3e2af1ad3e7f78d4U, 0x3d6d613b3e288600U, 0x3db875a0bdf819b8U,
  0x3d02d1f43dd507c8U, 0xbd5032ebbdaa50e2U, 0xbe534bbcbd9f686eU, 0xbd6e9f803e0f2814U,
  0xbdac0a003d8df2dfU, 0x3e6b29f43db36588U, 0xbe90922dbe633244U, 0xbe0010d5be1e4a34U,
  0x3e7627883e57b494U, 0xbe825a3a3b92dcdaU, 0xbc563e003e4dcba8U, 0xbdd1bfe0bc1f7bd5U,
  0x3e50d3c0bcb64935U, 0x3e22eef0bbde9b53U, 0xbe3ed911bdf7920aU, 0x3e277fe8bcc9afe0U,
  0x3ddd20d03e0e7b83U, 0xbe3b39683e0edfd0U, 0x3d8ce9803dee2d28U, 0xbbc34d00be380f48U,
  0xbcb54b87be0e0a54U, 0x3e3ae0503e3423b4U, 0xb9d9e2af3dc24683U, 0x3d2b9970bd438f67U,
  0xbe442814be45cfb2U, 0x3b127500be0135d8U, 0xbddc035c3e3b6650U, 0xbe04e0883d202200U,
  0x3d154b423a5262ffU, 0xbe2f7aa83db66740U, 0xbd645134be524368U, 0xbe1c15c8be4c5160U,
  0x3d844c49be62d468U, 0x3dd34e9d3d33a1c6U, 0xbdf724433e0fb7f1U, 0xbe233b78be814c70U,
  0xbe1929a83e3eadfeU, 0xbe0736283abc6600U, 0xbe0437133e5226b4U, 0x3e0ceaf3be5f62c8U,
  0x3d1f7910be54a498U, 0x3eda059cbd5bc76aU, 0x3e5224a8bcec0de0U, 0x3e0a662c3d033ef7U,
  0x3debe5b8bc2408f1U, 0x3cdbfa4d3e405c81U, 0x3ec4d90ebd53ca80U, 0x3e4ff56c3d47ccb0U,
  0xbdb890f0beddab10U, 0xbdfedaa83e4984d0U, 0xbce96b40bd39e330U, 0xbdb30f58bdd591b2U,
  0xbd49e333be6c0198U, 0x3c4f25c0be338060U, 0x3e9f24ad3ebd2378U, 0xbd328340be1183c4U,
  0xbeef72853d8ee931U, 0x3e59da9c3de6ce38U, 0x3ccde7683dc91288U, 0xbda9a2403d9a00d0U,
  0xbd9852f73df0c465U, 0xbe1b715ebd819e48U, 0x3e4e28a6be171bdcU, 0xbc341e80bdabb3c0U,
  0x3d2bf4d33e43c150U, 0x3d6c8bc9bd488e4cU, 0xbdcb066bbeb2b9eaU, 0x3c0cbc80bd5dc20bU,
  0x3e509af03d0535a7U, 0x3e26cf443e30d944U, 0x3d7fd3cc3dca3528U, 0x3e10d51e3c43d900U,
  0x3d87a2a8bdac9cf8U, 0x3ec0c7acbd9a8d8dU, 0xbe799894be4fc9e4U, 0xbe1d5bf03d14f9aaU,
  0xbd8c90c8be2da239U, 0x3c8435503e430de7U, 0x3ea060b2bd3fa0a9U, 0xbdcf8bf0be618914U,
  0xbe149fe83dfbd87aU, 0x3e777d64bdce7a98U, 0xbd81bfd8be03da04U, 0xbe36f958be23ef9dU,
  0xbd958fcb3a14c400U, 0x3d9cdc003dadd7a0U, 0x3e6f7e7d3e79afe4U, 0x3d7770a0bd53bc5cU,
  0x3daace033e1a1685U, 0xbe7e62b03d392390U, 0xbcc903d3be407fe8U, 0xbe54b5f83d522ad0U,
  0xbeb04c663e059dc4U, 0xbe499196bd233500U, 0xbe7936fc3e50d1e4U, 0xbde554903e14afdcU,
  0x3df6bec8bd6870d0U, 0xbcf111d23d8694fdU, 0x3dfd8540bd2ad6c0U, 0xbe0ac2883db2028fU,
  0x3e775658be6443c7U, 0xbcba0da03e31c6f0U, 0xbed3b2bb3e5664a8U, 0x3dc5f9a5bdc914a8U,
  0x3d0a02303dd87458U, 0x3da73618bea1bc78U, 0x3e28bd883de3d100U, 0xbdc650803d47ae73U,
  0xbe6fd9ec3da99d6dU, 0xbe376682bd667f6aU, 0x3dd4e1143e3cb686U, 0x3d6da1903e47d264U,
  0x3c9ee8803d99a797U, 0x3e216a90bd33c370U, 0x3e124444be779634U, 0xbe7bcf08be8f9461U,
  0xbe61792fbde36c50U, 0xbe1b2104bdbf82a0U, 0xbe2ca2363d3b2d14U, 0x3e59dadcbe098652U,
  0xbe358b473e1331a3U, 0xbe5fc848bbc38180U, 0xbe43a5053d8fdc70U, 0x3e44506cbde1a110U,
  0x3c1e498fbd962844U, 0xbe37f3443e39eae8U, 0x3cde8ae4be35b358U, 0xbe30420cbdcc9500U,
  0xbd302cb33e15fa28U, 0xbe0bf82f3d5d1c73U, 0xbe2c88b43bdd9f89U, 0xbe04a3c4bd00e383U,
  0x3ddefab0be42b7c3U, 0x3e2281583dae8b20U, 0xbbd39368bd1d5590U, 0xbe443fda3e2def64U,
  0x3e3a31443e1376e4U, 0x3e07014c3d0cb330U, 0x3d0cbf803dc01210U, 0xbb94ac80be2e53c4U,
  0x3d5bc9203cd902a0U, 0x3db5d620be667d40U, 0xbe197ab0be72d574U, 0x3e147c0c3e2ce070U,
  0x3e3802bcbdfc5bb0U, 0x3e47e5d0be60ce38U, 0xbad5fe003d1d8cc0U, 0x3c51c800bd486380U,
  0x3d1727b03e5f8f9cU, 0xbe0c3084be73c88cU, 0xbd05b170be230900U, 0xbd1d43f03e245274U,
  0x3ca30d803d8e6080U, 0x3d9580b03bcf7980U, 0xbe647ba43d12b580U, 0x3d915440bda370b8U,
  0x3e0a8cccbdc77d70U, 0xbe7a91e83d0c8700U, 0xbe7073283c2ae380U, 0xbd586570bd341220U,
  0x3dae13403e14c30cU, 0xbe5ec88cbd94de68U, 0xbdf4e2c8bd0913f0U, 0x3e6b88c8be540d18U,
  0x3e594370be650584U, 0x3e6a3eb8bd24fa00U, 0x3e3fd778be054a44U, 0xbe3891d8bd4437f0U,
  0xbd9a13e0bd417c20U, 0xbdc513c2ba05e8deU, 0x3cd094c0bd719400U, 0x3cd00aa0bd048f6fU,
  0x3d71f370be258bbcU, 0xbe036a563e078a48U, 0xbc9061843d2333f2U, 0xbe6b546c3db724a0U,
  0x3e7cf1b0be1093c2U, 0xbe5a60ac3d3c7500U, 0xbd978e183e147008U, 0xbd0b3530be89bd4dU,
  0x3e6ae0dbbe014024U, 0x3dc36048be494f14U, 0xbed12868bb1d7ceaU, 0xbe677ea03ca8c4bdU,
  0xbe2384563e4a4174U, 0x3e79b1f83dcfbe68U, 0x3af601233e10c608U, 0x3e320c10be679ad0U,
  0xbdb8392f3d1a4e8cU, 0x3c92e639bda3e2a0U, 0x3e946748bd3a8350U, 0xbe0da224bd48b890U,
  0x3e42b491bd138e50U, 0x3e253f43bd43c2d7U, 0xbe00ce61bdc80ad0U, 0xbd3760a03e418e09U,
  0x3e4301a8be210b28U, 0xbe6690003e48ea7cU, 0xbeed482b3dad5578U, 0x3e568f99be76cd94U,
  0x3e0cc74cbd168750U, 0x3e155719bda656a4U, 0xbe594754bd54cc10U, 0xbe346f74bd08e2feU,
  0xbe0646503e1ec47fU, 0xbe0a8709bde8259fU, 0xbe1aa44c3dccd92aU, 0xbd9586203e5ee7e4U,
  0x3dddb118be262ebcU, 0xbe6762e8bd9c3568U, 0xbd2ff9b0be102be8U, 0x3e5ae5243e49149fU,
  0xbe07822e3d5d6470U, 0x3ceb83803e5ee104U, 0x3c176f253e16812dU, 0xbe411a34bd7679bdU,
  0xbe845ec6be25f078U, 0x3e1dd6d03e6678fcU, 0xbe1ba324be26b1ecU, 0xbd843f583e00b14cU,
  0xbe5eeb50be72de96U, 0xbe8b08913e7d80a4U, 0xbe015a02be7e2144U, 0x3de81d80bd5757d0U,
  0x3e57e21d3e57db6cU, 0xbe8ce335bd856dc6U, 0xbcd771d8bd447bfdU, 0xbbc6dc803dad0019U,
  0x3e6d7e843dd1e3b4U, 0xbd4adca03d0b8bc0U, 0xbe2d02543e37b9bcU, 0xbe2d0fb5be327cccU,
  0xbe3a7484be115e34U, 0xbd3893d23dc37525U, 0x3e3fad48bd182d90U, 0x3e3a7548be09e3a3U,
  0x3e4fedbc3e15ed5bU, 0xbd270bd9beb0e5d0U, 0xbf2be267bd1184ecU, 0xbd133220bd127470U,
  0x3cb9c4a0bd5a97c0U, 0x3d552aa0be1027d0U, 0x3d9dce68bdec1a30U, 0x3e465e50be6ebdbdU,
  0x3e547a093e26eb3cU, 0x3d4f29d0be590ab8U, 0xbd115ec7bf102cbfU, 0xbe609b90bb00e6ceU,
  0x3f128110bdacca14U, 0x3e47ec303dfb6200U, 0x3dc3ed9c3e71b9e0U, 0x3e55b3043e702b8cU,
  0x3cf3f5f7bdc5a729U, 0x3e19c4523e707600U, 0x3d854f18bc243500U, 0x3e12ee443d88dd40U,
  0xbd8565253e32d9d8U, 0x3d739fff3d7b6c51U, 0xbc5955913ea8e71fU, 0x3db289a03c97145cU,
  0x3dd8f1803cd0ceaeU, 0x3d3e18c0be5e9498U, 0x3e80d5d93d71e6e0U, 0xbd957952bd9fca30U,
  0x3de810a03db0bb20U, 0xbe2ca9373deed879U, 0xbcc196e0bb426100U, 0xbd2d2bd0bde84d10U,
  0xbd7084d0be0e93ccU, 0x3d9e51c13dedf781U, 0xbe83cff4bddd2b93U, 0x3e71ce803d6a0740U,
  0x3d999a80bd764c22U, 0x3ded2f303e7cf510U, 0xbe08a530bd7f3f30U, 0x3e63f118be9d567bU,
  0xbeabfd153e0ee9a8U, 0x3e4fe3943c5ad880U, 0xbe93a346bd858131U, 0x3e12a298be477231U,
  0xbd282ff4bee5c674U, 0xbd0fecb03e6fec48U, 0xbe3da80b3c98a400U, 0xbe228dc03db84660U,
  0x3d907014be915e92U, 0x3e2badfa3e70cbc8U, 0xbe7a1f7b3e384df4U, 0x3cc166c03e41cc34U,
  0x3c32f4c03e4099d4U, 0xbeb5c73abd59ccedU, 0x3e281360be45ee58U, 0xbe4a2d183e09c52aU,
  0xbe214f10bd01813fU, 0xbe0be404bdd8ef50U, 0xbed4368ebd62a780U, 0xbeaee74c3d8b2550U,
  0xbdfd72b03cbd4a60U, 0x3d6a4e023c7225f1U, 0xbc480840be075114U, 0x3e53f66cbe070164U,
  0xbe2f02f8be46f7d0U, 0xbe2f180cbe322ea4U, 0x3dc8e3fcbd4181f0U, 0x3de292c03e56f904U,
  0xbe39e834be4c5224U, 0xbda18c803d73daf0U, 0xbe507250bdf55728U, 0x3ce8d8c03e2e9af2U,
  0xbe0b0fcb3dc5ac60U, 0xbe618af43e2712ecU, 0xbe4e97f9be29bb44U, 0x3e707bf4be1164d4U,
  0x3e398848bdb3b3ebU, 0x3cff59203d8f8e48U, 0x3ddbcb803e54d7dcU, 0xbe1d26d0be3cf2d8U,
  0xbe086efdbe78e140U, 0xbe28b806bc042dc0U, 0x3de9f237bd8670b0U, 0x3dddf900be629c8cU,
  0xbdb3ee2abdbeba70U, 0x3e50a4553cae2a9dU, 0x3e112b603ddc7c47U, 0x3d0b4750be05ef02U,
  0x3e04e0443e6f0f84U, 0xbd469a103e3433e8U, 0x3e52c23fbd58db30U, 0xbd9f9e923e302c58U,
  0x3e4cda8c3d9a4450U, 0x3df3cf40bca95782U, 0xbe2c4f14be19b12cU, 0xbc907280bb995e7fU,
  0x3e0e7058be3ccb68U, 0x3e57de34bda835b9U, 0xbe79b37fbdc24170U, 0xbe62cab83e3a5404U,
  0x3e752cb83db66ed0U, 0x3d5febe03dec5050U, 0x3c781b803df136a8U, 0x3db41c283d625172U,
  0xbe789ead3e7e090cU, 0xbe6760743e3f07c0U, 0xbb0d998ebe1cec38U, 0xbe564eacbe44ef19U,
  0xbcba1660bde46790U, 0xbdfef550bc99bb60U, 0xbe1963253b43e900U, 0x3d4ac480bd3ebc90U,
  0xbc30fd03bd8022c0U, 0x3ca712873e236738U, 0xbd01f1e9be3f6a20U, 0xbe116d0cbe7b1df4U,
  0xbd995b4ebd4e3fe0U, 0xba77830e3db1ae58U, 0xbdbc2c983e4d5183U, 0x3e4478b4be622082U,
  0x3e27bddc3d434c10U, 0x3dc3be60be0cd928U, 0x3e1226893d934a78U, 0xbdd70328bde57e18U,
  0xbe7d1e2cbe3610f8U, 0x3e1fc6c7bca6a27eU, 0xbd1390a0bdc56788U, 0x3c0a1f40be5c8ad5U,
  0x3e18ea10be370433U, 0xbdaa08debeafeff9U, 0xbe2486ccbc37700eU, 0xbc71d000bc9dba80U,
  0x3e09e25cbd6d3e97U, 0x3d0415a0be56853cU, 0xbde04238bd4147b0U, 0x3aadb000be91af9aU,
  0xbc98575ebe592ad0U, 0xbd1d94503cbdf820U, 0xbdab870e3d55f0f5U, 0xbc139440bca36223U,
  0xbdda63e9be1f6cd9U, 0x3e451704bd119170U, 0xbd25dad63c3f33c0U, 0xbe43fcd4bb3c3900U,
  0x3cff60a7bd4ebcc4U, 0xbe17a9fd3e12c18cU, 0xbe60e7df3e599b74U, 0x3de367e03cbfbcc0U,
  0xbeb914ca3e10b8c8U, 0x3d899c5d3daa73b7U, 0x3d94b2ee3bcdab22U, 0xbe1099343d299f54U,
  0x3e3fd2403cb49626U, 0xbda8cae8bde46290U, 0xbe12bbc43e354110U, 0x3d98ae9e3e646da4U,
  0xbe1ea9c43d90c2d0U, 0xbe146be83da160ebU, 0x3d486b70bdb74e20U, 0xbd67d8803d942327U,
  0xbc9aae403defaf4fU, 0xbd6224cf3d99d837U, 0xbe71b8133d4c91b4U, 0xbdafd0403d8c68c0U,
  0xbd2b8b103dc60279U, 0x3e72a4e83e3b2e94U, 0xbe724494be183d34U, 0xbc597540be19f79cU,
  0xbe04d2d83de0aa90U, 0xbe78ce8c3e5a23c8U, 0xbe4e9b08be507e9aU, 0xbe5f3b28be8afdebU,
  0xbe3ed85c3c3f1316U, 0xbe391b1cbdf2dd38U, 0xbe2fabfe3d63b840U, 0xbe14b3543b37d100U,
  0x3e34b582bf060a2dU, 0x3e2f7c14bd81e5c8U, 0x3e227317be790e58U, 0x3d1eb7f0bdb6f978U,
  0xbe37ac893ce5c340U, 0xbe5a20fcbd7ece18U, 0x3e6e97c4be51bc1dU, 0xbdeb51c8be13a559U,
  0x3e152dbc3d925920U, 0xbe1a4c443db35eb0U, 0xbe4a29bfbe234e8cU, 0xbe0c60743aba7200U,
  0x3e51be44bc86b260U, 0xbea763bf3a556a0eU, 0x3e2c6fecbe134110U, 0xbdb6cfb03e02fcaaU,
  0xbe187868bd640c4aU, 0xbe5e77393cd117e9U, 0x3c820b68bd130222U, 0xbdfc16603e4548d8U,
  0x3d8ddcf8bd467f14U, 0xbd6e84d03dc46178U, 0x3e0ce12c3b11d700U, 0xbe31ec083e3760a8U,
  0xbe8ff36fbd532260U, 0xbdea7f18be1a9080U, 0x3d43a7c3bee2ccceU, 0xbd8789b0be8c332fU,
  0xbcd846423e49b06cU, 0xbe44250c3ccb7cc0U, 0x3de1ffc6be284268U, 0x3e2cdc2cbdac5930U,
  0x3e358d21bdbfe109U, 0x3df3b11f3d59ba50U, 0xbe812a1bbcabf000U, 0x3da6c380be3b3dbcU,
  0xbe97eade3c561480U, 0xbe0d8512bdec3b33U, 0x3d0f5750be1b46b1U, 0x3daeaef8be7f930aU,
  0xbe757678bc46da00U, 0xbd89b720be4234b0U, 0xbe1a21a5be5aaf50U, 0xbea763d6be79e304U,
  0xbd1de8303e516cd0U, 0x3df99195be9dc067U, 0xbdfff7d03e13fd58U, 0x3e37cda8bdac7d06U,
  0xbe3736e4be90d80aU, 0xbe5ec1b03df69b74U, 0xbe8b80543d47b93bU, 0x3e51d46cbd974128U,
  0xbdb466c83d643487U, 0xbe580b443ca6d800U, 0xba722c00be628854U, 0xbdc238d0bdf34d85U,
  0xbdedcfdb3dce9460U, 0xbe4f88d83d3f4590U, 0x3e1057223d1fc5deU, 0x3dcdc168be531992U,
  0x3c9235893dd79e79U, 0x3e75e8c0bdca4028U, 0x3d9bc839bdab1b10U, 0xbdbbbe50bd168a50U,
  0xbcfb9ea8bd47996eU, 0xbce8f0873bbcef00U, 0x3c59d7bd3df14aa0U, 0x3e52df28bde0b040U,
  0xbdba7eb1bdf45378U, 0x3d66ca37bd0fb986U, 0x3df7c4bbbdbab031U, 0xbd34ba40bd8ac499U,
  0xbd6c04d03e042493U, 0x3d58dc903da970b8U, 0x3cac3202bdbb48b0U, 0xbe96149c3e3366ecU,
  0x3e098d203e6fd668U, 0xbdfd4a27be9a074aU, 0xbdc256f03e60d0f8U, 0xbd48c5d0bdae8d7aU,
  0xbe418e90bc64f88aU, 0x3d83e957be9ae537U, 0xbe9b3d1dbe26a412U, 0xbde16f40be22161cU,
  0xbe6dfbdcbbd9a900U, 0x3e31ea48be1a0f78U, 0x3d8548803e0df218U, 0x3c19e3c0be8b26bcU,
  0xbe0f78433e77944cU, 0xbe1cfb14bc3fd500U, 0x3e04e8153e0d63a9U, 0x3de4f6e8bd4949feU,
  0x3dcfb5fabe6477d6U, 0x3cbef660bdc32840U, 0xbe6f9b79be449690U, 0x3e210aa83e099204U,
  0xbe3960503d883e75U, 0x3e287dca3d66fd00U, 0xbcc33c7abdba9358U, 0x3ce3c520bd8b1fb0U,
  0xbca68ee1be214254U, 0xbe3303aabe6a5b91U, 0x3d3f91b8bdbad19bU, 0xbdbff0783e29493cU,
  0xbe533660be4c63d2U, 0xbcc1dd80bdfeab68U, 0xbd9601d7bd8f11f8U, 0xbb8a4171be57e7f4U,
  0x3ce81ee03e5cbb10U, 0xbe066ca7bcc7d38cU, 0xbdfa86203e4a4060U, 0xbd248ea03d7b1e31U,
  0x3dfc2a283e0e77afU, 0xbd4c90c4bde859f1U, 0xbe53fbfc3d92fb35U, 0x3c9811e0be38b3a0U,
  0x3ddf8d30bd5cb31eU, 0xbe55d1ec3dbcb4c8U, 0x3d7fb7403e091d5cU, 0x3d2263f03cf1306cU,
  0xbba2aee73d340750U, 0xbe1d84203dfe7558U, 0xbc92f2e03d064facU, 0x3db3dea0bcb7301eU,
  0x3ee0991a3eedfe0aU, 0x3d993f583e62717cU, 0x3d9316243d1895c0U, 0x3e266ca03e4f900cU,
  0xbe39d1713e2c2b91U, 0xbe0f2312be234cbcU, 0x3bc6285d3aa75200U, 0xbd35fa303e634008U,
  0xbcd365e8bcff8860U, 0x3d0ec76f3dbde36bU, 0xbd8ab3ef3f042691U, 0x3e4a0b2c3d619af3U,
  0xbe54d0883e14145bU, 0x3c9ed8403ca00620U, 0x3e5526c93e4bf0d8U, 0x3dc999ae3e615bc0U,
  0x3d325dd03df43b10U, 0x3e5954e2bdd81e70U, 0xbe191978be475f54U, 0xbe6e3940bce9b59aU,
  0xbdd41e00be89f5d6U, 0x3de840d83d8067dcU, 0xbe75ed22bd581450U, 0x3e122428bd085520U,
  0xbe6a318c3e1cf3ceU, 0x3e6c5b543e657730U, 0xbdcfe168be68a334U, 0x3e5181d83d455aa6U,
  0xbd287cc33d1bd260U, 0x3d2cef70bc39f180U, 0xba9e7a29be96d7fcU, 0xbd9903c8bded9e30U,
  0x3de0e5dabbd38688U, 0x3dd791f8be72cf1cU, 0xbdcaba98be6c1c70U, 0x3e1051cc3e18ba14U,
  0xbd5c4acbbc79ff0bU, 0x3da7373f3e683a98U, 0xbdad23a7bc643ec0U, 0xbe7093a43c8c2ce0U,
  0xbe583952bc20e3c0U, 0xbe1788eabd1932bfU, 0xbe31e3b03cc09ba5U, 0x3e362e6cbda983b2U,
  0xbdb29ac03df794d8U, 0x3dc1f8d83e44157cU, 0x3d811ffc3da75218U, 0xbe3dadc3be698898U,
  0xbe71fd783e6b0ec4U, 0xbd8be70d3cfabc13U, 0xbe0a26483dd4e860U, 0x3e7ef018be13a88bU,
  0x3e77b8c0bd4c13ebU, 0x3e10146abe187c70U, 0xbeb1d2ecbe989c17U, 0x3dfc07183d97bc30U,
  0xbc6af9c0be4f72eeU, 0xbe7ce3b8be6ca664U, 0xbba5b2803d89cbb0U, 0xbe1416d0bdcb5e57U,
  0xbcc19ae63e7bf6e4U, 0x3e5c650c3e1b70a4U, 0x3e0b6f693b33bea6U, 0x3ce2d520be421144U,
  0xbe5ec63f3c89c367U, 0xbd3a2fd03dc576a8U, 0x3e2277273df7e338U, 0x3d4f49a03e363fccU,
  0x3de32edfbe9fcba0U, 0xbe2689babe6f7550U, 0xbe1cdb523c214ec0U, 0x3de31c303e0e0858U,
  0x3de4b060bc117c00U, 0x3dc7097ebe23b042U, 0xbd0be5debe476b05U, 0x3e698d7cbdaaa00cU,
  0x3e1bd6e8be71eba0U, 0x3e44b414bde67108U, 0xbc0ff63c3e634b6cU, 0xbea097f83da17f08U,
  0x3e6954b0be2969f8U, 0x3e3a7adf3e061e42U, 0xbdfc03403e10c1c8U, 0x3e46d3303e0ca086U,
  0x3e701260be96a459U, 0xbe072b77beb8032dU, 0x3dd0f4753c90eaf8U, 0xbddb6e30bde4a920U,
  0x3e38b2f03df12684U, 0xbd7a6000bcb32340U, 0x3e7a2cb8be6dd5a4U, 0xbd971498bbee5178U,
  0x3d3717c03d8c1dd8U, 0xbdbbb4e0bc366c40U, 0x3e0f1be4bd41abdaU, 0xbe3b9ac8be2a3a84U,
  0x3e33cef5bde39bd5U, 0x3e70f75cbab0dc00U, 0xbdcf6dbbbe1d9678U, 0xbe0edcbc3dad4c70U,
  0x3c5d2f59be855699U, 0xbd9132dabc866840U, 0xbe9a9cb23d87bfa8U, 0xbe7af4c0bd0560d0U,
  0x3de00e1a3d6c5f20U, 0x3e3423e4be71e6eaU, 0xbde326423d92fb37U, 0xbc35b140be913732U,
  0xbe512b4cbe6be53bU, 0xbdb116d03d8668e8U, 0x3d1989f2be0da478U, 0xbe56492bbe64781cU,
  0xbd167785bcad64a0U, 0xbd330528U, 0xbd5e9a92bcac813aU, 0x3da3e8de3e313d6fU,
  0xbd363e7cbd8201bfU, 0xbd4d89e73dd8a694U, 0xbc7a4b40bd26793cU, 0xbe008f8ebe31ca76U,
  0x3e47ca8c00000000U, 0xbe0950bdbd01f1d0U, 0xbc942396bd3caa98U, 0xbe371da4bb3a5dd3U,
  0xbd5e2ca4bd098e74U, 0xbd37b772bdc48635U, 0xbd3d51e2bd908d4bU, 0xbdc832b1bdd2deb3U,
  0x3eb7b2cebe9949b3U, 0x3e0c6d4c3ce4ebd7U, 0x3dd285e2beac2381U, 0x3e4d8f83bd4dc311U,
  0x3e86802abd5ab689U, 0xbe538392bc8201dcU, 0x3e77b80d3e249173U, 0xbeb75f0c3d95927cU,
  0x3e15ac563ec658d2U, 0xbd88a6f93e091de4U, 0x38656a15be008159U, 0x3d6e60abbe1db3daU,
  0xbe979e93bdbb7c60U, 0xbe04673abe06e1d1U, 0xbe85c8a73d08f654U, 0xbea40f1fbeb99048U,
  0x3e86d4523d342b44U, 0xbe3441243e4de5a4U, 0xbe9207a13e002401U, 0xbd532c5d3d425c30U,
  0xb9ca200bbe57cde9U, 0xbdcce72f3cfdcdd7U, 0x3de7ed1ebd51c687U, 0x3e05c13a3e122aa5U,
  0x3e39b28d399ef800U, 0x3ea58da93e1b1660U, 0xbe9c1b94be8d71abU, 0xbd2e04f23e4965ecU,
  0xbeb163c5bf3cc446U, 0x3e8e8fa53eb068caU, 0x3da43a063ca0575bU, 0x3daf9a10be9b9394U,
  0x3eaf4f39bd92398eU, 0x3ebdf0f43e0042a1U, 0x3e6313393c1d344eU, 0x3e5126863d2e4f71U,
  0xbe0c3e91be43aebcU, 0xbe2bb4823d0f9baaU, 0x3e87a1e43ec13521U, 0xbe65ced9be0d0b50U,
  0x3d813f223eae2a30U, 0xbd6c3e38be0402dfU, 0xbe2188033eb2908dU, 0xbe450d143e882d91U,
  0xbecbd881be3cf380U, 0x3d1ef7403e900e43U, 0xbdd68a5cbf1350b8U, 0xbeba7686bdde5dd4U,
  0x3e2e058dbdac68f2U, 0x3e4132dcbdc3fd30U, 0xbe8ca6c5be938261U, 0x3e88c418be4fd785U,
  0x3e6c5eb83e03e86aU, 0x3e0c3e41bec34484U, 0x3e01e1913e90986eU, 0x3e7231053d986b03U,
  0x3d4191f63ea3852cU, 0x3ec7a56d3d978f70U, 0x3e07579a3e0eecd5U, 0x3dc20ac0be3b4848U,
  0x3e8d60f03e97f604U, 0x3dcdd3ec3e839e75U, 0xbe644d173dc04169U, 0x3e2ba1fb3d3220b2U,
  0xbd937988beaa6e7cU, 0xbeca0be8be867384U, 0xbee02dd4be89c7cdU, 0x3e6842933d0b0735U,
  0x3ccab89e3cf7ec8fU, 0xbe474b823b8d579dU, 0xbf1195c53ce6ba2bU, 0xbe8a52e8bd676b6fU,
  0x3e86eda63e8aa096U, 0xbd65f360be410e9bU, 0xbe8a98d53e5072b9U, 0xbd588690bd46e190U,
  0x3d065840bb15a14dU, 0x3e5edc62be1922c8U, 0xbeb4b0753d8b2249U, 0x3e5d4e90bea80deaU,
  0xbe40eaa6bd88431aU, 0xbecdbb3c3e9adf12U, 0x3e79ed18U,
};


ai_handle g_predictive_maintenance_weights_table[1 + 2] = {
  AI_HANDLE_PTR(AI_MAGIC_MARKER),
  AI_HANDLE_PTR(s_predictive_maintenance_weights_array_u64),
  AI_HANDLE_PTR(AI_MAGIC_MARKER),
};

